8
290
329
-59
-183
-46
340
-304
-359
580
193
437
-180
495
-265
425
-64
496
-63
312
-84
-6
167
214
78
-245
26
-115
-346
157
-62
-275
-44
-613
62
82
-339
113
-89
505
-298
379
-99
322
63
20
-436
-457
-239
-177
-254
-108
143
-464
354
642
570
-35
-98
395
504
11
701
-11
-58
-8
-116
-73
-138
-3
-40
249
395
383
105
-1
-249
75
111
409
253
182
-407
-155
10
-660
195
539
458
580
591
-685
13
440
71
217
-66
-1
25
109
242
-114
-355
308
346
-57
-256
-19
-299
-274
538
382
-468
247
663
184
-111
-123
-107
139
807
394
304
143
-349
84
-19
-55
9
487
-190
-743
-115
-343
-373
-114
-391
46
375
159
218
-314
515
-38
91
112
-124
-670
21
17
-546
-346
-195
-130
-307
994
111
486
479
278
519
-364
