2
111
-228
299
2
430
-16
-442
-5
390
428
215
-649
-1
-98
202
-327
-550
94
-358
199
-740
91
18
-47
-360
115
-286
125
-236
-333
87
147
-53
117
-632
-794
313
-83
-680
-313
-308
-907
-293
-44
-16
-260
-94
-136
-471
-179
-87
-225
-308
-120
-210
-183
329
-84
-233
-219
-258
-49
305
-246
245
-272
164
225
-75
324
-130
359
-1588
-147
67
-357
-76
154
-184
273
70
-380
-6
248
121
-101
-187
156
47
-1501
-439
108
-190
175
-5
-30
-245
328
-19
105
-743
21
230
-253
-139
-149
-31
94
-415
263
-177
-22
-234
-346
125
-30
237
-624
-117
51
261
-367
-170
-66
-259
-132
91
-700
-859
-122
-241
55
202
155
-368
-261
513
185
-192
-151
-1079
59
-640
289
59
-226
-227
302
130
166
-44
314
13
10
-265
13
-224
122
-49
-262
213
-226
-261
-253
18
-53
196
-326
-211
306
298
-99
19
154
-134
209
264
-178
-76
138
317
294
257
97
-267
93
-32
-116
-18
264
183
-66
345
148
-8
70
226
-277
-165
-570
-235
-345
-39
257
92
-186
-118
29
-790
-69
-558
-91
-442
-903
121
183
-1084
-798
-645
-891
-463
-110
-193
-350
-310
-775
-187
72
-183
227
345
-60
-200
-1226
-688
-364
-100
-127
-403
266
365
-146
-320
-430
-48
113
-38
122
-250
1
-837
-504
-115
-141
-500
-342
-775
-630
205
-1023
-221
-860
-757
-436
-635
-749
-152
-302
-271
-641
32
-753
-487
-841
-647
-417
101
-674
-578
-560
-477
-251
-571
-569
-352
-328
-431
-362
-341
-206
-883
-539
-512
-230
-198
-298
148
-114
-661
127
-720
-435
-449
-77
-585
-797
84
-886
-769
41
113
-138
-118
-47
-1072
-286
-228
-1048
103
-135
-841
-328
-976
-662
-209
253
-323
-973
159
-667
547
-222
-38
-1332
-59
-384
149
-247
96
-1143
63
-106
-482
-473
413
-71
159
-527
117
-805
-612
172
-103
-53
225
-338
-71
106
349
233
-218
209
32
-411
74
-373
-119
-393
-43
170
-377
-44
-64
111
-236
139
160
-308
-12
39
-282
-123
23
-280
-298
-418
-354
256
-59
-198
169
131
-395
-402
-212
-562
276
-314
-155
68
203
121
-911
262
-638
12
44
-79
-302
31
-428
92
103
-78
-479
89
448
-43
-161
-913
-987
-419
16
248
-972
209
-354
-233
153
-810
319
-506
54
-914
-376
-272
-806
-54
256
-720
-1210
-296
-747
430
-1544
-326
-311
98
-566
-486
260
64
18
-551
-504
-348
-852
-578
-556
-606
-202
-234
-445
-551
-950
-306
364
70
4
-108
-30
-354
172
-251
-777
-325
87
-400
247
-159
-155
-220
-152
77
417
-557
254
84
98
-120
-781
117
69
149
198
-148
-1269
271
-257
-412
31
-385
-146
-349
-267
-438
-134
109
55
433
-353
59
-349
249
-378
-301
-68
-182
-121
-196
-484
275
334
-102
-408
-313
-146
203
-709
-147
204
-253
-207
-312
-442
10
26
-1178
-10
-547
-246
-306
-246
-173
-56
-112
-113
217
-307
-24
-252
-634
-243
221
-32
-94
295
-90
-829
166
-290
333
435
-706
-545
-531
-6
-30
-562
-191
-107
-141
-8
197
-606
-800
132
0
-2
115
-587
-764
397
-561
-487
-17
-377
-729
-1156
-246
-489
-465
-493
311
-4
-75
-552
-352
20
-1204
-278
-221
67
-250
178
-1213
-482
-174
246
133
46
-771
206
-467
-591
47
-189
-495
-480
-587
-247
363
-713
-904
-35
-161
-76
-852
-381
170
131
-162
53
7
102
-1015
214
-1063
-466
-454
475
-467
147
120
28
284
-1234
