-540
-361
541
371
445
-168
263
187
64
238
755
-199
-534
336
158
-395
21
323
245
308
513
-215
-212
-143
209
341
-148
101
-508
286
501
-103
550
-310
84
243
113
319
-428
459
-217
-139
-75
494
-16
342
719
542
446
-497
-321
-159
26
-552
433
1
-294
37
289
401
-119
-33
-59
-205
320
462
-87
321
-312
-342
-320
316
664
154
334
-215
-51
862
428
-304
342
-108
-127
-303
112
-211
2
173
447
-57
417
344
-85
-66
143
221
406
384
-22
229
713
-261
-9
-107
7
413
138
409
97
-284
-97
-235
87
179
-11
482
-125
-177
-319
-188
461
169
-380
287
299
-135
200
-259
52
276
147
-354
284
-432
-122
245
353
478
231
344
498
70
206
49
-329
724
29
500
387
261
-553
155
726
159
-233
-152
208
267
-119
370
-420
148
