-26
-833
-399
111
-191
223
-153
-145
196
-104
-89
-191
-268
-536
-201
177
-205
54
-1318
-1201
-136
-2199
-29
-503
26
194
-395
-64
301
-562
-860
-532
-761
-939
-327
-864
-198
-134
-47
-193
-250
-116
-306
-677
-257
195
167
110
-27
114
238
-259
-14
-298
55
-1219
76
-385
-216
-141
-410
-435
357
131
20
-17
-1298
-400
-79
356
11
-207
-301
133
-43
339
-1051
-172
-566
264
141
-514
-394
158
-518
220
-211
-331
-236
-344
-452
-292
-990
-134
-509
-255
-211
41
-330
118
-247
-834
-678
-386
-1088
-44
-423
109
-320
297
-83
-356
-224
-57
-148
-210
-363
-515
42
-475
-148
205
-229
-429
-28
-314
424
-55
38
-180
266
-159
-200
-726
-91
-88
-295
372
-132
-30
-135
92
233
-200
60
-71
60
0
5
141
-525
-214
-301
-234
-369
-161
-488
-400
-230
-330
-139
234
198
190
-419
156
-143
284
16
-98
-121
-352
-298
-200
-41
156
33
109
261
-150
-669
-894
-226
-141
46
190
179
-175
-119
390
157
102
-778
-894
-121
43
-300
232
-1583
-464
106
-766
108
450
-539
79
-223
61
196
-747
-185
-995
-6
-74
-705
-462
-218
-715
94
-51
-389
-224
224
170
384
6
-115
262
41
132
-239
87
-234
-694
-544
248
-717
-654
-302
-328
-250
239
-516
-279
-205
166
-299
-12
-449
-259
384
67
217
-636
253
41
-585
97
-40
-173
-185
-104
-132
-346
105
-71
-26
68
-164
45
89
241
-141
33
-485
-375
171
29
-17
113
-203
72
-46
-1399
120
-74
-715
-95
-586
212
-435
-42
139
-170
-48
-1880
-123
-414
66
145
-292
-472
249
-613
50
-174
-239
-339
453
127
-256
117
-806
-995
-153
331
-149
-545
-355
-367
-135
185
-603
42
68
-325
4
-336
-225
-391
6
75
-179
-667
-163
128
-31
-91
0
48
-2
-293
-129
-94
26
-287
-76
-62
-56
121
128
-2
-206
-99
-149
-290
131
-194
106
203
-811
-90
-88
-51
-156
-146
-385
290
-358
-439
-888
-415
268
-295
194
339
-45
-938
274
-468
-326
-846
-680
-440
-432
-210
-392
-431
255
633
-425
323
-357
182
350
240
57
-376
-61
-583
-197
-45
144
-319
-414
201
-486
-366
225
-17
-290
-497
133
-798
-3
-229
-69
-173
-259
-726
25
-486
349
-595
-183
157
-45
416
-304
-319
-137
-305
84
-236
-249
-285
-298
-74
146
-130
24
178
-367
109
231
230
60
-16
284
66
-173
139
65
97
-364
45
336
35
-15
60
68
-222
344
11
-202
-299
-435
93
-150
261
-334
-94
202
-869
-784
-9
-336
-47
130
-654
-419
-503
-920
-1266
-896
-507
-149
57
-330
192
315
-26
-258
-898
-109
-228
-673
-401
194
175
211
-128
26
-268
-286
27
-193
-467
-152
-398
-563
75
-543
-360
-895
-81
-808
72
-713
-430
-492
-257
-505
-217
-617
-20
-409
-581
-91
43
-37
-11
-734
60
3
-37
-276
-1053
-690
-646
-12
-464
-142
-366
382
-499
-47
-1087
1
-1081
369
-254
-187
-264
-193
-137
-339
331
-205
-22
14
31
305
-296
-568
-166
-377
-392
-1041
-626
-94
-302
19
-328
-838
2
-22
-1218
-365
11
-783
-33
262
153
67
-318
-358
-117
-311
116
15
53
76
-510
-542
-145
-474
44
-249
-306
-61
82
-735
-773
-99
-547
162
93
-150
-445
-62
-290
-328
398
400
-36
65
-471
-615
36
-223
-57
-168
18
-660
-149
-181
-349
-468
45
-711
-251
-760
-462
-313
-199
-356
51
-24
-146
-494
-444
-559
-163
-33
-36
120
230
